<?xml version="1.0"?>
<opencv_storage>
<!-- Created using Computer Vision Toolbox(tm) for MATLAB(R) -->
<!-- Version 9.8.0.1396136 (R2020a) Update 3 -->
<!-- Compatible with OpenCV 3.4 -->
<cascade>
  <stageType>BOOST</stageType>
  <featureType>LBP</featureType>
  <height>32</height>
  <width>32</width>
  <stageParams>
    <boostType>GAB</boostType>
    <minHitRate>9.9500000476837158e-01</minHitRate>
    <maxFalseAlarm>1.0000000474974513e-03</maxFalseAlarm>
    <weightTrimRate>9.4999999999999996e-01</weightTrimRate>
    <maxDepth>1</maxDepth>
    <maxWeakCount>100</maxWeakCount></stageParams>
  <featureParams>
    <maxCatCount>256</maxCatCount>
    <featSize>1</featSize></featureParams>
  <stageNum>2</stageNum>
  <stages>
    <!-- stage 0 -->
    <_>
      <maxWeakCount>9</maxWeakCount>
      <stageThreshold>-1.8942038714885712e-01</stageThreshold>
      <weakClassifiers>
        <_>
          <internalNodes>
            0 -1 20 -49 -3145745 -4113 -17 -2097201 -540024881 -1 -17</internalNodes>
          <leafValues>
            -9.6377205848693848e-01 7.2053718566894531e-01</leafValues></_>
        <_>
          <internalNodes>
            0 -1 13 -67110145 -71304257 1929100031 -201327685 -69227777
            -67122433 -83903745 -67110149</internalNodes>
          <leafValues>
            -9.0265280008316040e-01 7.4078756570816040e-01</leafValues></_>
        <_>
          <internalNodes>
            0 -1 16 -215223365 -205524037 -202640385 -134220885
            -206570561 -72614997 -206832721 -215223413</internalNodes>
          <leafValues>
            -8.9425998926162720e-01 6.9422531127929688e-01</leafValues></_>
        <_>
          <internalNodes>
            0 -1 11 -791619368 -237110017 -1850614307 -639771395 -393217
            -1 -1 -1</internalNodes>
          <leafValues>
            -9.2438185214996338e-01 6.7506086826324463e-01</leafValues></_>
        <_>
          <internalNodes>
            0 -1 8 -5325889 -72631381 -1441857537 -13631489 -80757841
            -1154502737 -1435566353 -13762577</internalNodes>
          <leafValues>
            -8.3113604784011841e-01 6.8171471357345581e-01</leafValues></_>
        <_>
          <internalNodes>
            0 -1 21 -1 1069038587 -16641 1067461272 -1 545303224 -20481
            -1</internalNodes>
          <leafValues>
            -8.1170880794525146e-01 6.6530084609985352e-01</leafValues></_>
        <_>
          <internalNodes>
            0 -1 5 -170919774 1610326959 -671088641 -139464785
            -540082450 2147463087 -1 -5259345</internalNodes>
          <leafValues>
            -9.1381609439849854e-01 5.5115693807601929e-01</leafValues></_>
        <_>
          <internalNodes>
            0 -1 15 -605037825 -3329 -76022273 -67109633 -68162307
            -67176705 -67142913 714031357</internalNodes>
          <leafValues>
            -8.3328104019165039e-01 6.0238754749298096e-01</leafValues></_>
        <_>
          <internalNodes>
            0 -1 18 -77595702 522190798 1140559823 1474297807 -69469441
            -4353 872411135 2147483647</internalNodes>
          <leafValues>
            -9.3684822320938110e-01 4.9342298507690430e-01</leafValues></_></weakClassifiers></_>
    <!-- stage 1 -->
    <_>
      <maxWeakCount>16</maxWeakCount>
      <stageThreshold>5.1464974880218506e-01</stageThreshold>
      <weakClassifiers>
        <_>
          <internalNodes>
            0 -1 6 -1 -1114386 -134218257 -20754 -1 -3146769 -1025 -1</internalNodes>
          <leafValues>
            -8.6548447608947754e-01 5.4529005289077759e-01</leafValues></_>
        <_>
          <internalNodes>
            0 -1 0 -202178561 -1 -8388609 -1025 2160639 2013231103
            2147467263 -16385</internalNodes>
          <leafValues>
            -8.0185925960540771e-01 5.6169939041137695e-01</leafValues></_>
        <_>
          <internalNodes>
            0 -1 23 -1077936129 -1073742853 -2098177 -8193 357896693
            154228149 2146959359 -1</internalNodes>
          <leafValues>
            -7.3469257354736328e-01 5.8469277620315552e-01</leafValues></_>
        <_>
          <internalNodes>
            0 -1 4 -1 -790429702 1071611390 -33619784 536805375
            1164967935 485555711 1610569723</internalNodes>
          <leafValues>
            -7.6544070243835449e-01 5.3955763578414917e-01</leafValues></_>
        <_>
          <internalNodes>
            0 -1 10 -71385153 -81069142 -496042017 -201352193 -79709505
            -1087447041 -219218177 -9502721</internalNodes>
          <leafValues>
            -7.5779455900192261e-01 5.5378907918930054e-01</leafValues></_>
        <_>
          <internalNodes>
            0 -1 7 -772711973 899701656 -2621453 2113009137 -1920414002
            -134619169 -268435457 -574236195</internalNodes>
          <leafValues>
            -6.8996638059616089e-01 5.6370532512664795e-01</leafValues></_>
        <_>
          <internalNodes>
            0 -1 19 -1140851841 -67151073 -1309148417 -100705697
            -1409811713 -67109889 -1409287442 -1426177458</internalNodes>
          <leafValues>
            -6.5263158082962036e-01 5.9037208557128906e-01</leafValues></_>
        <_>
          <internalNodes>
            0 -1 17 -4 -2563 -1539 -1365 -1644498433 44213744 448437499
            -525313</internalNodes>
          <leafValues>
            -7.2749626636505127e-01 5.5843251943588257e-01</leafValues></_>
        <_>
          <internalNodes>
            0 -1 22 -92569618 1497333048 -587215417 1565523967 -8421876
            -50594817 -85 -536870913</internalNodes>
          <leafValues>
            -7.6413118839263916e-01 4.6452274918556213e-01</leafValues></_>
        <_>
          <internalNodes>
            0 -1 3 1206845439 1139720122 1476361215 -671122472 101708623
            -945032197 1205821439 1207918587</internalNodes>
          <leafValues>
            -8.5875099897384644e-01 4.1433274745941162e-01</leafValues></_>
        <_>
          <internalNodes>
            0 -1 24 1937768319 1999893375 2001729523 843036571 -1054849
            2011127415 -1208484865 -1153451073</internalNodes>
          <leafValues>
            -6.4661651849746704e-01 5.6240844726562500e-01</leafValues></_>
        <_>
          <internalNodes>
            0 -1 1 -268435953 -33818371 1473310975 1291703803 76432911
            397408255 127792839 1474160119</internalNodes>
          <leafValues>
            -8.3036565780639648e-01 4.2603728175163269e-01</leafValues></_>
        <_>
          <internalNodes>
            0 -1 14 -286326820 -1426128897 -67108899 -168332036
            -16778753 -2100817 -134248291 1308602863</internalNodes>
          <leafValues>
            -8.3385658264160156e-01 4.0350919961929321e-01</leafValues></_>
        <_>
          <internalNodes>
            0 -1 2 -577205348 -621142497 1539448797 -2453537 -540144689
            1100613914 -1954574337 -58593</internalNodes>
          <leafValues>
            -7.0157223939895630e-01 4.8556512594223022e-01</leafValues></_>
        <_>
          <internalNodes>
            0 -1 12 2112876795 -675352151 -3150865 1471148793 -102009604
            -540286892 -470813331 1408217227</internalNodes>
          <leafValues>
            -7.4437385797500610e-01 4.5557278394699097e-01</leafValues></_>
        <_>
          <internalNodes>
            0 -1 9 -1075871745 992093565 781320816 -14862864 -393217
            956303928 933685243 -537200641</internalNodes>
          <leafValues>
            -6.5341794490814209e-01 5.2204251289367676e-01</leafValues></_></weakClassifiers></_></stages>
  <features>
    <_>
      <rect>
        0 9 9 7</rect></_>
    <_>
      <rect>
        4 12 2 4</rect></_>
    <_>
      <rect>
        6 7 8 6</rect></_>
    <_>
      <rect>
        6 14 2 3</rect></_>
    <_>
      <rect>
        6 17 3 3</rect></_>
    <_>
      <rect>
        7 9 4 5</rect></_>
    <_>
      <rect>
        7 10 4 2</rect></_>
    <_>
      <rect>
        7 15 7 3</rect></_>
    <_>
      <rect>
        8 5 4 5</rect></_>
    <_>
      <rect>
        8 21 4 3</rect></_>
    <_>
      <rect>
        9 6 4 4</rect></_>
    <_>
      <rect>
        9 12 7 5</rect></_>
    <_>
      <rect>
        10 3 4 8</rect></_>
    <_>
      <rect>
        10 4 5 5</rect></_>
    <_>
      <rect>
        10 14 2 4</rect></_>
    <_>
      <rect>
        11 0 4 6</rect></_>
    <_>
      <rect>
        11 1 3 7</rect></_>
    <_>
      <rect>
        11 14 3 5</rect></_>
    <_>
      <rect>
        12 8 5 5</rect></_>
    <_>
      <rect>
        14 2 3 4</rect></_>
    <_>
      <rect>
        14 5 5 5</rect></_>
    <_>
      <rect>
        14 17 3 5</rect></_>
    <_>
      <rect>
        19 9 2 2</rect></_>
    <_>
      <rect>
        21 13 3 6</rect></_>
    <_>
      <rect>
        23 10 2 4</rect></_></features></cascade>
</opencv_storage>
