<?xml version="1.0"?>
<opencv_storage>
<!-- Created using Computer Vision Toolbox(tm) for MATLAB(R) -->
<!-- Version 9.8.0.1396136 (R2020a) Update 3 -->
<!-- Compatible with OpenCV 3.4 -->
<cascade>
  <stageType>BOOST</stageType>
  <featureType>LBP</featureType>
  <height>32</height>
  <width>32</width>
  <stageParams>
    <boostType>GAB</boostType>
    <minHitRate>9.9500000476837158e-01</minHitRate>
    <maxFalseAlarm>1.0000000474974513e-03</maxFalseAlarm>
    <weightTrimRate>9.4999999999999996e-01</weightTrimRate>
    <maxDepth>1</maxDepth>
    <maxWeakCount>100</maxWeakCount></stageParams>
  <featureParams>
    <maxCatCount>256</maxCatCount>
    <featSize>1</featSize></featureParams>
  <stageNum>2</stageNum>
  <stages>
    <!-- stage 0 -->
    <_>
      <maxWeakCount>17</maxWeakCount>
      <stageThreshold>5.7700479030609131e-01</stageThreshold>
      <weakClassifiers>
        <_>
          <internalNodes>
            0 -1 0 -3473410 -1 -817045537 -538976257 -5570565 -65537
            -11534337 -1</internalNodes>
          <leafValues>
            -8.6833035945892334e-01 6.2103521823883057e-01</leafValues></_>
        <_>
          <internalNodes>
            0 -1 35 -41764 -40961 -218169601 -32769 -16851378 -8388769
            -84215041 -1</internalNodes>
          <leafValues>
            -8.8349211215972900e-01 5.9041577577590942e-01</leafValues></_>
        <_>
          <internalNodes>
            0 -1 30 -4456456 -7611256 -2575 -8707 -4456453 -14680184
            -14942209 -14688803</internalNodes>
          <leafValues>
            -8.1670379638671875e-01 5.8611339330673218e-01</leafValues></_>
        <_>
          <internalNodes>
            0 -1 22 -44836 -43780 354357373 -41761 -1164002566 -9474
            404666623 -41985</internalNodes>
          <leafValues>
            -7.9983735084533691e-01 5.6162476539611816e-01</leafValues></_>
        <_>
          <internalNodes>
            0 -1 7 -1414857734 -269489440 1941894131 -5390 -1962083333
            -806367282 528482303 -1</internalNodes>
          <leafValues>
            -7.6477581262588501e-01 5.2475810050964355e-01</leafValues></_>
        <_>
          <internalNodes>
            0 -1 15 -111364 -45825 -218432769 -763666945 -7682866
            -33665843 -491521 -4534785</internalNodes>
          <leafValues>
            -7.2836667299270630e-01 5.5797433853149414e-01</leafValues></_>
        <_>
          <internalNodes>
            0 -1 32 -17041158 -359929174 -1287923016 -7340113 -67633672
            -552599553 1943524177 -1</internalNodes>
          <leafValues>
            -7.5706607103347778e-01 5.1040393114089966e-01</leafValues></_>
        <_>
          <internalNodes>
            0 -1 38 -51457842 -43946 1920988911 2139062143 -353698230
            -8388785 2817775 -12582913</internalNodes>
          <leafValues>
            -7.4306279420852661e-01 4.9042239785194397e-01</leafValues></_>
        <_>
          <internalNodes>
            0 -1 23 -1174907652 -188963 -571376129 1566384093
            -1078411525 -4255813 -1198981121 521740189</internalNodes>
          <leafValues>
            -8.4778982400894165e-01 3.7320020794868469e-01</leafValues></_>
        <_>
          <internalNodes>
            0 -1 21 -584003432 -551813736 1396396479 1595871441
            -838284550 -6628680 437950651 454693049</internalNodes>
          <leafValues>
            -8.7240970134735107e-01 3.4847897291183472e-01</leafValues></_>
        <_>
          <internalNodes>
            0 -1 1 -1964244997 -270532677 -806355073 -806354945
            -1966080005 -269484037 -892610599 -812653119</internalNodes>
          <leafValues>
            -6.2822496891021729e-01 5.7054501771926880e-01</leafValues></_>
        <_>
          <internalNodes>
            0 -1 25 -2304836 -47247840 809463933 1964972925 -4539718
            -1088386296 940243135 992985023</internalNodes>
          <leafValues>
            -7.7573770284652710e-01 4.3252089619636536e-01</leafValues></_>
        <_>
          <internalNodes>
            0 -1 40 -5505030 -5579352 -143855120 -41507 -155975693
            -4260391 926349303 -8715</internalNodes>
          <leafValues>
            -7.0249438285827637e-01 4.4053167104721069e-01</leafValues></_>
        <_>
          <internalNodes>
            0 -1 19 -1078430216 -536912680 2004080637 1476335089
            -1347900421 -29958 260489151 532418461</internalNodes>
          <leafValues>
            -8.0218237638473511e-01 3.9152640104293823e-01</leafValues></_>
        <_>
          <internalNodes>
            0 -1 3 -8197 -1078542414 -1491468176 251853819 -1347284802
            1073151931 -8435204 -851969</internalNodes>
          <leafValues>
            -6.0448545217514038e-01 5.4076606035232544e-01</leafValues></_>
        <_>
          <internalNodes>
            0 -1 26 1561353464 -14688872 2138693111 -44547 -559392001
            -1078001668 454736127 461900285</internalNodes>
          <leafValues>
            -8.0708813667297363e-01 4.1098105907440186e-01</leafValues></_>
        <_>
          <internalNodes>
            0 -1 31 -17862424 -8422324 1987465787 2004318717 -1162969526
            -19923122 840624891 -16777217</internalNodes>
          <leafValues>
            -7.8688454627990723e-01 3.7959662079811096e-01</leafValues></_></weakClassifiers></_>
    <!-- stage 1 -->
    <_>
      <maxWeakCount>25</maxWeakCount>
      <stageThreshold>4.6783527731895447e-01</stageThreshold>
      <weakClassifiers>
        <_>
          <internalNodes>
            0 -1 29 -1 -150224470 -1 -8388609 -536881665 1595065673
            1599331839 -11272225</internalNodes>
          <leafValues>
            -7.6121586561203003e-01 5.3076541423797607e-01</leafValues></_>
        <_>
          <internalNodes>
            0 -1 8 -5505054 -806357056 1946153952 -2747 -4194305
            -806354945 -536872969 -2081</internalNodes>
          <leafValues>
            -7.5481843948364258e-01 5.1982998847961426e-01</leafValues></_>
        <_>
          <internalNodes>
            0 -1 12 -9012 -8737 -83965714 1920950271 -74676 2135907406
            -65537 2132541439</internalNodes>
          <leafValues>
            -8.2932490110397339e-01 4.1758984327316284e-01</leafValues></_>
        <_>
          <internalNodes>
            0 -1 28 -2233 -8388793 -129 -10485945 -1 -257 -262145
            -428871837</internalNodes>
          <leafValues>
            -6.0873705148696899e-01 5.9844076633453369e-01</leafValues></_>
        <_>
          <internalNodes>
            0 -1 10 -8962 -8193 -84243729 -251666433 -74546 -134783489
            -16850945 -4521985</internalNodes>
          <leafValues>
            -5.8103555440902710e-01 5.4901653528213501e-01</leafValues></_>
        <_>
          <internalNodes>
            0 -1 34 -1078201366 -273944344 -536887118 -3619 -4457217
            361484495 363794943 1440732671</internalNodes>
          <leafValues>
            -7.1837884187698364e-01 4.0089625120162964e-01</leafValues></_>
        <_>
          <internalNodes>
            0 -1 11 -8454 -38544182 414996528 1553849815 -550796288
            134782393 1594613147 1599078367</internalNodes>
          <leafValues>
            -7.5114238262176514e-01 3.5782369971275330e-01</leafValues></_>
        <_>
          <internalNodes>
            0 -1 16 -739003393 -35818503 288571642 1564413970
            -1846210305 -1073792577 420546778 453053135</internalNodes>
          <leafValues>
            -7.2668075561523438e-01 3.2519191503524780e-01</leafValues></_>
        <_>
          <internalNodes>
            0 -1 2 989270258 1608366290 2130686202 -2098442 939268085
            1501919180 -1 -3145777</internalNodes>
          <leafValues>
            -7.1621483564376831e-01 3.7194460630416870e-01</leafValues></_>
        <_>
          <internalNodes>
            0 -1 13 -1079836704 -274217536 1409282802 1409236992
            -1883242497 -806354961 402653175 1607943509</internalNodes>
          <leafValues>
            -8.7744259834289551e-01 2.6421865820884705e-01</leafValues></_>
        <_>
          <internalNodes>
            0 -1 4 -1048854 -806359090 271800320 1382012759 -4465526
            218759039 1393811291 1468006367</internalNodes>
          <leafValues>
            -7.5952821969985962e-01 2.9624524712562561e-01</leafValues></_>
        <_>
          <internalNodes>
            0 -1 17 -551300870 -15112 -541371397 1561399411 -548877574
            -177414 -1156924742 186319035</internalNodes>
          <leafValues>
            -7.2981595993041992e-01 3.0590364336967468e-01</leafValues></_>
        <_>
          <internalNodes>
            0 -1 41 -19964722 -8225 -756352278 1383071727 -93651386
            -8388769 -353697822 -495978521</internalNodes>
          <leafValues>
            -7.4242430925369263e-01 3.1250584125518799e-01</leafValues></_>
        <_>
          <internalNodes>
            0 -1 36 -201329938 -752368542 108785826 1465906535
            -766774033 1410155585 1347418087 1397749487</internalNodes>
          <leafValues>
            -7.3414582014083862e-01 2.9172593355178833e-01</leafValues></_>
        <_>
          <internalNodes>
            0 -1 37 -1884618838 -1347879000 -67108877 -515 -1884553227
            -1886654577 1191678967 -551563795</internalNodes>
          <leafValues>
            -6.5421527624130249e-01 3.3708348870277405e-01</leafValues></_>
        <_>
          <internalNodes>
            0 -1 6 -1365201158 -557070 891420671 2138406899 -1431900166
            -593984 -1346895874 -546045962</internalNodes>
          <leafValues>
            -7.3168671131134033e-01 3.0548581480979919e-01</leafValues></_>
        <_>
          <internalNodes>
            0 -1 27 -46672515 -675332080 1431590159 1912017489 -94118145
            -1745484778 339703727 -178262961</internalNodes>
          <leafValues>
            -5.2082413434982300e-01 4.5073473453521729e-01</leafValues></_>
        <_>
          <internalNodes>
            0 -1 18 -616407812 1600126029 1602191359 2136440701
            -884027650 -2101506 1829437437 -1081468451</internalNodes>
          <leafValues>
            -5.6653779745101929e-01 4.0475973486900330e-01</leafValues></_>
        <_>
          <internalNodes>
            0 -1 24 -524730 1884617798 -385 1824849647 -143655378
            -286340570 -1048833 -1091653922</internalNodes>
          <leafValues>
            -6.6132068634033203e-01 3.3396929502487183e-01</leafValues></_>
        <_>
          <internalNodes>
            0 -1 9 -790 1305468874 3209248 1346753887 -275015542
            -2027176465 1394843419 -753410089</internalNodes>
          <leafValues>
            -6.7140001058578491e-01 3.3325660228729248e-01</leafValues></_>
        <_>
          <internalNodes>
            0 -1 14 -579116697 -9902093 423039120 1292124403 -210796253
            -549140645 959389875 -816887569</internalNodes>
          <leafValues>
            -5.7148748636245728e-01 4.1235321760177612e-01</leafValues></_>
        <_>
          <internalNodes>
            0 -1 33 -1145851736 -5509720 -536872784 -2595 -1111785217
            -1081421393 272306431 530546879</internalNodes>
          <leafValues>
            -6.6859310865402222e-01 3.4486210346221924e-01</leafValues></_>
        <_>
          <internalNodes>
            0 -1 39 -201326866 363544769 67862562 1464595535 1913353295
            1602966623 1611625331 1347155823</internalNodes>
          <leafValues>
            -7.9097467660903931e-01 2.5841632485389709e-01</leafValues></_>
        <_>
          <internalNodes>
            0 -1 20 -70466 -46724592 523352063 500762129 -1883469128
            -1162639174 187468731 529469244</internalNodes>
          <leafValues>
            -7.0100986957550049e-01 3.0972662568092346e-01</leafValues></_>
        <_>
          <internalNodes>
            0 -1 5 -134284034 -100696065 -260409601 1879244415 -4271034
            -682098721 -402718721 1983938559</internalNodes>
          <leafValues>
            -7.5450396537780762e-01 2.8938281536102295e-01</leafValues></_></weakClassifiers></_></stages>
  <features>
    <_>
      <rect>
        2 5 8 8</rect></_>
    <_>
      <rect>
        4 1 4 7</rect></_>
    <_>
      <rect>
        4 13 8 6</rect></_>
    <_>
      <rect>
        5 11 4 7</rect></_>
    <_>
      <rect>
        6 13 2 3</rect></_>
    <_>
      <rect>
        6 20 3 2</rect></_>
    <_>
      <rect>
        7 5 5 4</rect></_>
    <_>
      <rect>
        7 8 3 2</rect></_>
    <_>
      <rect>
        7 10 2 2</rect></_>
    <_>
      <rect>
        7 11 2 4</rect></_>
    <_>
      <rect>
        7 19 2 2</rect></_>
    <_>
      <rect>
        8 12 2 4</rect></_>
    <_>
      <rect>
        8 18 2 2</rect></_>
    <_>
      <rect>
        9 9 2 2</rect></_>
    <_>
      <rect>
        9 15 4 3</rect></_>
    <_>
      <rect>
        9 20 2 2</rect></_>
    <_>
      <rect>
        11 16 4 3</rect></_>
    <_>
      <rect>
        11 19 3 2</rect></_>
    <_>
      <rect>
        11 22 3 2</rect></_>
    <_>
      <rect>
        12 8 2 2</rect></_>
    <_>
      <rect>
        12 9 3 2</rect></_>
    <_>
      <rect>
        12 20 3 2</rect></_>
    <_>
      <rect>
        13 6 4 3</rect></_>
    <_>
      <rect>
        14 7 2 2</rect></_>
    <_>
      <rect>
        14 7 6 4</rect></_>
    <_>
      <rect>
        14 9 3 2</rect></_>
    <_>
      <rect>
        14 22 2 2</rect></_>
    <_>
      <rect>
        15 10 3 4</rect></_>
    <_>
      <rect>
        16 0 5 8</rect></_>
    <_>
      <rect>
        16 13 3 4</rect></_>
    <_>
      <rect>
        16 19 3 3</rect></_>
    <_>
      <rect>
        17 8 3 3</rect></_>
    <_>
      <rect>
        17 14 4 4</rect></_>
    <_>
      <rect>
        17 19 2 2</rect></_>
    <_>
      <rect>
        18 17 2 2</rect></_>
    <_>
      <rect>
        19 8 2 2</rect></_>
    <_>
      <rect>
        19 12 2 3</rect></_>
    <_>
      <rect>
        19 19 2 2</rect></_>
    <_>
      <rect>
        20 9 2 3</rect></_>
    <_>
      <rect>
        20 12 2 3</rect></_>
    <_>
      <rect>
        20 17 2 3</rect></_>
    <_>
      <rect>
        21 11 2 2</rect></_></features></cascade>
</opencv_storage>
