<?xml version="1.0"?>
<opencv_storage>
<!-- Created using Computer Vision Toolbox(tm) for MATLAB(R) -->
<!-- Version 9.8.0.1396136 (R2020a) Update 3 -->
<!-- Compatible with OpenCV 3.4 -->
<cascade>
  <stageType>BOOST</stageType>
  <featureType>LBP</featureType>
  <height>32</height>
  <width>32</width>
  <stageParams>
    <boostType>GAB</boostType>
    <minHitRate>9.9500000476837158e-01</minHitRate>
    <maxFalseAlarm>1.0000000474974513e-03</maxFalseAlarm>
    <weightTrimRate>9.4999999999999996e-01</weightTrimRate>
    <maxDepth>1</maxDepth>
    <maxWeakCount>100</maxWeakCount></stageParams>
  <featureParams>
    <maxCatCount>256</maxCatCount>
    <featSize>1</featSize></featureParams>
  <stageNum>2</stageNum>
  <stages>
    <!-- stage 0 -->
    <_>
      <maxWeakCount>19</maxWeakCount>
      <stageThreshold>5.0134241580963135e-01</stageThreshold>
      <weakClassifiers>
        <_>
          <internalNodes>
            0 -1 26 -196612 -196612 -1 -131587 -65537 -1 -1 -1</internalNodes>
          <leafValues>
            -9.7007369995117188e-01 5.9273219108581543e-01</leafValues></_>
        <_>
          <internalNodes>
            0 -1 17 -1 -3 -196609 -196619 -1 -1 -131073 -1145505803</internalNodes>
          <leafValues>
            -8.7668132781982422e-01 5.7871210575103760e-01</leafValues></_>
        <_>
          <internalNodes>
            0 -1 3 -1073679105 -4128782 1356005375 -1 1073804543
            -12517904 -235798529 -8388609</internalNodes>
          <leafValues>
            -8.3806198835372925e-01 4.5967394113540649e-01</leafValues></_>
        <_>
          <internalNodes>
            0 -1 8 -12189697 -11141291 -131075 -11141295 -49938439
            -11468816 -196611 -11468811</internalNodes>
          <leafValues>
            -7.6464611291885376e-01 4.9291619658470154e-01</leafValues></_>
        <_>
          <internalNodes>
            0 -1 46 -873467905 -1343307777 -33554951 -515 -269504534
            -825233425 -842019648 -842007089</internalNodes>
          <leafValues>
            -6.2857663631439209e-01 5.1441007852554321e-01</leafValues></_>
        <_>
          <internalNodes>
            0 -1 14 -1653401605 -35459 1567981439 1567972639 -1073922049
            -1073774601 -1644740613 493952373</internalNodes>
          <leafValues>
            -7.4535650014877319e-01 4.5279604196548462e-01</leafValues></_>
        <_>
          <internalNodes>
            0 -1 20 -1301302550 -749732664 -83887446 1364195978
            -269484305 -548877112 -1328677909 1364194287</internalNodes>
          <leafValues>
            -7.7481228113174438e-01 3.9914232492446899e-01</leafValues></_>
        <_>
          <internalNodes>
            0 -1 1 -157373241 -12289 -1162287361 -553713921 1423835149
            -69238817 -84100097 -65537</internalNodes>
          <leafValues>
            -5.6834203004837036e-01 5.4104518890380859e-01</leafValues></_>
        <_>
          <internalNodes>
            0 -1 36 -197124 -3342340 -269484035 -34603268 -515 -16777217
            -570430019 -1915814724</internalNodes>
          <leafValues>
            -7.2411364316940308e-01 3.7766391038894653e-01</leafValues></_>
        <_>
          <internalNodes>
            0 -1 2 -341317633 -281050966 1597974515 -7493 -73682953
            -268447509 1601126645 -48394</internalNodes>
          <leafValues>
            -5.2074605226516724e-01 5.6348884105682373e-01</leafValues></_>
        <_>
          <internalNodes>
            0 -1 24 -268435474 -1572913 1895788736 -237111297 -561
            1095423310 -234883349 1372581615</internalNodes>
          <leafValues>
            -7.3179697990417480e-01 4.2251241207122803e-01</leafValues></_>
        <_>
          <internalNodes>
            0 -1 6 -285284134 -997174 107882638 -3875377 213117090
            -9372926 203374615 -11010229</internalNodes>
          <leafValues>
            -6.9479620456695557e-01 3.9163839817047119e-01</leafValues></_>
        <_>
          <internalNodes>
            0 -1 22 -43975171 -664067 896925567 1433474421 -42946693
            800660345 -466571393 673264949</internalNodes>
          <leafValues>
            -7.0201832056045532e-01 3.6022147536277771e-01</leafValues></_>
        <_>
          <internalNodes>
            0 -1 43 -270406244 -1345716247 -393283 -917515 -1 -872677428
            817888412 -2003968916</internalNodes>
          <leafValues>
            -7.2568500041961670e-01 3.6990308761596680e-01</leafValues></_>
        <_>
          <internalNodes>
            0 -1 16 320592090 1543459610 -210502918 1668807422 266338047
            -539690156 -1107427841 1364852607</internalNodes>
          <leafValues>
            -6.9834327697753906e-01 3.9951518177986145e-01</leafValues></_>
        <_>
          <internalNodes>
            0 -1 34 -1431327840 -1431651662 -67110919 -707004941
            -268698694 -1413764181 -1198791520 -1960837365</internalNodes>
          <leafValues>
            -6.6762000322341919e-01 3.9501160383224487e-01</leafValues></_>
        <_>
          <internalNodes>
            0 -1 32 -1006382078 -209980165 -524803 -67117579 -978584081
            -84149249 -1050673289 -1711276681</internalNodes>
          <leafValues>
            -6.0095149278640747e-01 4.5371243357658386e-01</leafValues></_>
        <_>
          <internalNodes>
            0 -1 23 947936508 -72318977 -1 -1343557 1073643518
            -1073774593 -2129921 264208255</internalNodes>
          <leafValues>
            -7.3090744018554688e-01 3.7297204136848450e-01</leafValues></_>
        <_>
          <internalNodes>
            0 -1 18 -8388609 522179545 -1 303191005 458226687
            -1692665345 1933293055 -1697074992</internalNodes>
          <leafValues>
            -5.6789892911911011e-01 4.8347613215446472e-01</leafValues></_></weakClassifiers></_>
    <!-- stage 1 -->
    <_>
      <maxWeakCount>30</maxWeakCount>
      <stageThreshold>4.3609300255775452e-01</stageThreshold>
      <weakClassifiers>
        <_>
          <internalNodes>
            0 -1 29 -18 -269484049 -16777536 -83886081 -177 -947912833
            -150997433 -150994945</internalNodes>
          <leafValues>
            -8.1658834218978882e-01 3.0600073933601379e-01</leafValues></_>
        <_>
          <internalNodes>
            0 -1 37 -1073491837 -9017 -42467329 -674767017 -844103681
            -50331697 -1058537985 -715653249</internalNodes>
          <leafValues>
            -6.2905746698379517e-01 5.2592408657073975e-01</leafValues></_>
        <_>
          <internalNodes>
            0 -1 33 -1049014 -294664693 -218479040 1920161623 -269562290
            1080516447 1095915335 1400897375</internalNodes>
          <leafValues>
            -7.2961765527725220e-01 4.1431173682212830e-01</leafValues></_>
        <_>
          <internalNodes>
            0 -1 35 -135266578 -454033494 -16777536 -251658301
            -403710385 1149239167 -402655369 -201328641</internalNodes>
          <leafValues>
            -6.2075358629226685e-01 4.2760947346687317e-01</leafValues></_>
        <_>
          <internalNodes>
            0 -1 0 -4545 -33560850 -283185921 -93656562 -39163 -254
            -11015297 -10486193</internalNodes>
          <leafValues>
            -5.1133054494857788e-01 4.9308365583419800e-01</leafValues></_>
        <_>
          <internalNodes>
            0 -1 40 -131346 521196712 -1616231412 513506813 1595427932
            523984382 1572494685 1069283327</internalNodes>
          <leafValues>
            -6.1158406734466553e-01 4.0115562081336975e-01</leafValues></_>
        <_>
          <internalNodes>
            0 -1 39 1393447135 1426620319 -167772174 -2621456
            -1414857814 -1568084312 1879044088 -7602752</internalNodes>
          <leafValues>
            -5.1897555589675903e-01 4.4530379772186279e-01</leafValues></_>
        <_>
          <internalNodes>
            0 -1 12 -214709686 2002738013 -203818296 1937767403
            1061153982 -167903476 -117575457 1398659919</internalNodes>
          <leafValues>
            -6.5241795778274536e-01 3.4898209571838379e-01</leafValues></_>
        <_>
          <internalNodes>
            0 -1 11 2086533118 1582129108 -10551297 1599963133
            1548516829 1561092058 526155743 1527731167</internalNodes>
          <leafValues>
            -6.7813670635223389e-01 3.2662206888198853e-01</leafValues></_>
        <_>
          <internalNodes>
            0 -1 44 -151070205 -94371873 -1103906113 -1439236205
            -891319798 -86001426 721398442 -1426130242</internalNodes>
          <leafValues>
            -5.4704362154006958e-01 4.0389984846115112e-01</leafValues></_>
        <_>
          <internalNodes>
            0 -1 30 -118 -286265362 -16777536 -218103809 -134217905
            1114636159 1157624900 1937766399</internalNodes>
          <leafValues>
            -7.5833821296691895e-01 2.8868579864501953e-01</leafValues></_>
        <_>
          <internalNodes>
            0 -1 19 -1393009412 -1179091508 -9 -167804929 -1359151628
            -1074758657 -35061765 -1078296577</internalNodes>
          <leafValues>
            -6.8956369161605835e-01 2.6941698789596558e-01</leafValues></_>
        <_>
          <internalNodes>
            0 -1 45 1539549898 2012954594 -184418656 -237764624
            1113586666 1347157446 -181404436 -705430031</internalNodes>
          <leafValues>
            -6.3297134637832642e-01 3.2759210467338562e-01</leafValues></_>
        <_>
          <internalNodes>
            0 -1 42 -71315206 1066991350 -4695924 532108637 800871920
            528506101 419976637 498950143</internalNodes>
          <leafValues>
            -6.8756294250488281e-01 2.9343053698539734e-01</leafValues></_>
        <_>
          <internalNodes>
            0 -1 7 -780091158 -7446 536550879 1072627955 835763404 -3077
            2147440093 2147440471</internalNodes>
          <leafValues>
            -6.6592490673065186e-01 2.9708719253540039e-01</leafValues></_>
        <_>
          <internalNodes>
            0 -1 10 -827340582 -35660336 -388956164 -278921220
            -210326790 -136970256 -2031632 899809267</internalNodes>
          <leafValues>
            -6.5707778930664063e-01 3.0219170451164246e-01</leafValues></_>
        <_>
          <internalNodes>
            0 -1 5 -813436933 -811079552 -1081357 -403216670 -284164097
            -269488205 -1087930377 -1091725</internalNodes>
          <leafValues>
            -4.5484045147895813e-01 4.6916672587394714e-01</leafValues></_>
        <_>
          <internalNodes>
            0 -1 13 1953974395 1560236115 1915982199 1899081841
            -104992287 -556204843 -82183429 -625411373</internalNodes>
          <leafValues>
            -4.4134920835494995e-01 4.5937344431877136e-01</leafValues></_>
        <_>
          <internalNodes>
            0 -1 27 319290062 1608499402 283822794 -36185892 402640622
            -137445238 1383594818 -136314881</internalNodes>
          <leafValues>
            -5.3048551082611084e-01 4.0455055236816406e-01</leafValues></_>
        <_>
          <internalNodes>
            0 -1 15 -1341720850 -136315170 -132532 -151036274 856407790
            -3156856 939376639 323813583</internalNodes>
          <leafValues>
            -7.2099590301513672e-01 2.6256802678108215e-01</leafValues></_>
        <_>
          <internalNodes>
            0 -1 31 -1868824648 429521328 -37749251 -572654155
            -1866727492 -1086324741 285202877 -1422917717</internalNodes>
          <leafValues>
            -4.7309476137161255e-01 4.2841741442680359e-01</leafValues></_>
        <_>
          <internalNodes>
            0 -1 38 1878749954 2058903252 -6784244 1527795029 -290704008
            305847676 -284680194 1528520703</internalNodes>
          <leafValues>
            -6.4529711008071899e-01 3.1367486715316772e-01</leafValues></_>
        <_>
          <internalNodes>
            0 -1 4 -7405650 -546122142 -50694401 -890241809 -11446780
            -12396992 -1091061553 -547356853</internalNodes>
          <leafValues>
            -4.7291421890258789e-01 4.1540932655334473e-01</leafValues></_>
        <_>
          <internalNodes>
            0 -1 47 -269242437 -1347510093 -536871431 -1682194453
            -404752470 -1347507221 -582489663 -854597681</internalNodes>
          <leafValues>
            -4.3886062502861023e-01 4.5483374595642090e-01</leafValues></_>
        <_>
          <internalNodes>
            0 -1 41 -772549566 -141832108 -1197020861 17291095 -21241888
            120806675 -1561594337 1109915511</internalNodes>
          <leafValues>
            -6.1987930536270142e-01 3.2835128903388977e-01</leafValues></_>
        <_>
          <internalNodes>
            0 -1 28 923884797 -571347756 44751359 -983448467 1044709334
            -283382780 -2031158025 -1034501118</internalNodes>
          <leafValues>
            -4.8456013202667236e-01 4.1176453232765198e-01</leafValues></_>
        <_>
          <internalNodes>
            0 -1 21 -1112491527 -2031656 -176324737 2112436081
            -1086734403 -4587523 -1079165011 -1108796652</internalNodes>
          <leafValues>
            -4.4383591413497925e-01 4.4228890538215637e-01</leafValues></_>
        <_>
          <internalNodes>
            0 -1 9 1932250634 1935629406 799644360 1598905307 893386378
            -134417830 1711038671 2001819418</internalNodes>
          <leafValues>
            -6.8576467037200928e-01 2.9790419340133667e-01</leafValues></_>
        <_>
          <internalNodes>
            0 -1 48 -28317117 -748715457 17271337 9080047 -521158656
            -1108018369 -2025590273 -464524049</internalNodes>
          <leafValues>
            -4.4121861457824707e-01 4.6726760268211365e-01</leafValues></_>
        <_>
          <internalNodes>
            0 -1 25 336860500 1608334781 -1615093761 533688303
            -554648130 -1074807810 -1694982145 445390754</internalNodes>
          <leafValues>
            -6.1174732446670532e-01 3.2652622461318970e-01</leafValues></_></weakClassifiers></_></stages>
  <features>
    <_>
      <rect>
        0 19 5 3</rect></_>
    <_>
      <rect>
        0 24 7 2</rect></_>
    <_>
      <rect>
        1 6 5 3</rect></_>
    <_>
      <rect>
        1 8 8 5</rect></_>
    <_>
      <rect>
        4 19 2 2</rect></_>
    <_>
      <rect>
        5 6 3 2</rect></_>
    <_>
      <rect>
        5 13 2 3</rect></_>
    <_>
      <rect>
        6 8 3 3</rect></_>
    <_>
      <rect>
        6 13 4 4</rect></_>
    <_>
      <rect>
        7 12 2 3</rect></_>
    <_>
      <rect>
        7 13 2 4</rect></_>
    <_>
      <rect>
        7 21 6 3</rect></_>
    <_>
      <rect>
        8 12 2 3</rect></_>
    <_>
      <rect>
        8 16 4 2</rect></_>
    <_>
      <rect>
        9 5 4 3</rect></_>
    <_>
      <rect>
        9 10 2 3</rect></_>
    <_>
      <rect>
        9 11 2 4</rect></_>
    <_>
      <rect>
        9 15 4 4</rect></_>
    <_>
      <rect>
        9 21 5 2</rect></_>
    <_>
      <rect>
        10 9 4 3</rect></_>
    <_>
      <rect>
        10 12 2 3</rect></_>
    <_>
      <rect>
        11 4 3 2</rect></_>
    <_>
      <rect>
        11 6 4 2</rect></_>
    <_>
      <rect>
        11 8 4 3</rect></_>
    <_>
      <rect>
        11 16 2 1</rect></_>
    <_>
      <rect>
        11 25 3 2</rect></_>
    <_>
      <rect>
        12 8 4 6</rect></_>
    <_>
      <rect>
        12 12 2 3</rect></_>
    <_>
      <rect>
        12 12 3 2</rect></_>
    <_>
      <rect>
        12 16 1 1</rect></_>
    <_>
      <rect>
        13 16 1 1</rect></_>
    <_>
      <rect>
        13 24 5 2</rect></_>
    <_>
      <rect>
        14 10 1 3</rect></_>
    <_>
      <rect>
        14 15 1 2</rect></_>
    <_>
      <rect>
        14 21 6 3</rect></_>
    <_>
      <rect>
        15 15 1 1</rect></_>
    <_>
      <rect>
        15 16 4 3</rect></_>
    <_>
      <rect>
        16 9 1 3</rect></_>
    <_>
      <rect>
        16 14 1 3</rect></_>
    <_>
      <rect>
        17 11 3 3</rect></_>
    <_>
      <rect>
        17 16 1 2</rect></_>
    <_>
      <rect>
        18 13 1 2</rect></_>
    <_>
      <rect>
        18 14 1 3</rect></_>
    <_>
      <rect>
        18 18 3 2</rect></_>
    <_>
      <rect>
        19 5 4 3</rect></_>
    <_>
      <rect>
        20 12 2 3</rect></_>
    <_>
      <rect>
        20 17 4 3</rect></_>
    <_>
      <rect>
        20 19 4 3</rect></_>
    <_>
      <rect>
        24 10 2 3</rect></_></features></cascade>
</opencv_storage>
